3332138116810882902713010091933933270199a7253936
3f172f9210819097a1241914978b85331735ae988a3f2847
3117289800029d9c0e2538148c978a463605a88484483138
0887110212018d940c8910268c0889890d200f87810f881d
201518120010038d08251f098ba8942a18189686871b1120
1f1b198b02038b9a1606018a88ac0d14241d9faa0423211c
0c1698091b09998316080d06a991850e17009c090d1c1705
211692180686aa870f11150190040513048197900a0a8903
0c0e138a088e858396830c08898e82050b00938b0c21000d
06210c9b130b030498010006860f9913150706019a190402
08201b84028d9097881e240c9792070e8117899c9b071b1a
811615900184908990860a1884860883130f818a01021383
a48505161b1d12261b8a8f228319868b9609160311a58508
958a1a04810d0d1911078b041118139f060c0c2105098709
9308171e0809061c061408060d16108d0187281c240e0d14
070a12810707090b01868a0788010c220809980c0f290b0c
05010008858a8d0c1b1b0993848804160f158f84811a1f89
0c08890b12950e8b0c0a1d85908c2417120306031c160497
160aa288098798081a26028a058d06071b829a86811b0d91
120603100e818418831c150302851c08088ca2180a0f9389
0817020f8a85a5910b1d0e86908a0e8b0c829381820e1411
0c2d159e948a9a9b0f0a2b0e9e868c342901a5a091262611
2b0b038b0d1c9193091c3003a1a00023220eac94053a1d82
150c030b1507890005242f0d8f09141315988d0e93190790
058312020105148e8413160b02899700072309018c940829
1023070a8513018388040122929f880f1e1993889b0a8a25
8e04130991188b060a100c008c98158f11040f908a0e0083
0286880697059007160a84870b97100a0b0b881187168506
028b9102008a8d0d1286878f8d8a0b0e810f0a8e0d07010d
8f888d81128a018794860f0e949586810207020c8d07008e
10040e158f058e0f0587018e038f8f120283019c0c898d98
07120c9712828a8114859114860b09860018098d84861a82
9a890989178b05078907030f00921002819684040d8b8897
1b00090d890a0505848c0b1c048d8c001008028615880715
92848c131000978395090988109a0b0300930b02038b0716
8c13000201030f908185821504070602030b0a130b128602
1089078c078c83880d0f83030b110e8b10050a0d89091200
080682031796068794170015109110168987108100068711
088f110f82030f83070b8f8781980a0f088a01050a879113
0388111188990f83891f84038e8c0504949c0b89900b0708
020a1104080a928e060b0194098704010a110586908a021a
01930b0d0d890491850b0311049501058e01020202848c81
81168e821201820c0683888187060501820d81030f038503
8396830f9605848a011689030a100c9a0e048f88910a8b93
8a00818d00071a95068e99868e0487958981818604058217
890a00899f828c948a059b0a8684118f8e8204820309a086
830a0506930a0a970d868a91040097050f0904840592918f
88018404110b001084100f839b028a018a01078591889382
8b018a85820389898d118e81858f090d8d10108c88900284
0400890f168a150c8f05838c8e0e03089591128e02079d84
858100979611960b8f068182080007088e87888f81850606
8a060b060d83858886068d8c1000050b8e011684070d8f07
9304058d94898106018a8c868d9311020e010f030a810911
9a1404928202058c0885048a0e968f9088880a948112820c
108602810190910a02891006050b81879302910604848c8d
8a968402868483060f980c90891882080890080012028a8f
0f088583110c07080882039a040e020e8813820388050007
94820601858218118481050d0b8593050f0818030d838e86
0c08898c0d0b948e11860490998d908286108d1194109506
008b0785820004980482148a07968e8c8987038600088505
010c83058194838704048b02838210820a84930a07848b83
0d1294068911890d05810815030582870306869189820983
91028197960d878c038482109111918a85878b8501828505
0989879a900a8710830681000205110282078a0587848881
8d8585978686018383140110880a870b118e8c9283078e01
928c98859205990606848a8691090310019386978b0a8783
87869993828b8b0190028516830a100a0b8f84140d060582
8f06830208120d0404918b0714021300070c81888b840094
0f810d8d8688081405038d8c8909030b9502180310070300
85060e028c010201068501848f011094900b97928308818a
0406839087030f84078b0404078908979a050c8504978490
8786081183928f90830d86008e0283130e86040d83070e8c
07878d0387020101878a8b8f8c0c81948681070a93898183
030a85101314010c90101003928c828f0d1310031210028d
120c038c96840701000d8c00178d89838f061207090c0188
860102068d0d04061102081404910b018a87061882098f82
028687088a988101828b8b96058a0314028c108a08068317
8a818286088108810f1589868307920e8895018912880d00
81088686980b8a0f088492018e901806060309098b858d92
8105180a830090940301150d8d0c068882040b030a8d9a8d
8b87899712810407878d0101870c0905050a0007060f090c
02068b950886080d180e0f8594039201050f8b11890b8498
130413960906078b8e9183928e958d920984840891848e92
0008060100830d8790849386988f820606850c0a84058386
060783969303058782018b95100d0f01948e028b958a0c84
8d020b018c8790090d87851015000187008684868e079509
89070c81108a14928d1317848f81188d0b06010505810288
03829900908787029682068304831286838c08828f120284
8b0a12088900080a89990886039102028198978603868f81
040786018f818e86909881140204818188110d10060e0512
02828d8294088f03888604058f080d818f0c130481858313
07018816810703890f89020498019a078904020a8c02118a
8e868d91938e071483000c15870595860c0f028705838592
068786049290060e0189068b8c8a86820e880398138e0e00
09099088990383810206910d019602990500068a8c0e038d
0291848481090b0c078b0901088307860986900400810e84
840b118a890293878c8303918706100884850d9284998a81
8c8619078390081085078a148c030b890600130286848888
050b031008860a8b86819209100b0611060b910d06828c0e
03908a8d860988848309060312920c089188089881851787
9386058802878b1705158204008f8286010705058713120d
938786868285108f0f001106968f8b81888489950c880a82
8185048e8f8d82180e01080a029008070d840199848b818f
15820086088e92028a8f090e860b860b0a0e928106008887
0b0485098f8e8386938e0a00960381810784091702938a8a
048d8d1086908598988d0502890b82828705870a8b04018b
95978191038f92819585148e0911039b9984000301998212
840200870a0e0407988e86061092810b83858b0894810004
8c07870d090d118f8904100a0b868d8502048688090a1409
1792850e940b8c08110003850a8b84080a17950500040c05
0a140b810c01828a88830400820009068c81831190878d86
88190b980c028d8c860682018c838d930a8a8e1c07028581
81058985059f0c11950a0083818c8a030484830f0e180d88
02048995080f8c8981888c9183889c04868285090814140c
17049c8f87088d020e880b810785061701850e1809058384
8c8f82088d0486890c830388088589928298850590130393
85940182911082041104849a05830582050481108a81038c
060888070485920b86878a029b8e880f060c8d05038d0984
0f908501830d8a828911199288009b0a88058500830d030f
0c011c85230a980f15850f0e0b9a8313850d84178102130e
12868b888d0d14068b0711008f098c140000000d9c0b8b07
881a8a078e088c10158d8488039a8d8f0a898d09828f1011
839492890205128181830e038b01080293830208888610a6
8a000b850205930c03048e8e0a1409910308010290188e06
860f9416030982920c828b8b008b1e8d0283888288000196
02860c0b898e098c8215008d81820c918a83040684018f83
10098d0684888b92108b0e8d8286848f0b959706858e1108
0b9d920c048484009889038f8a0310838191120500088c06
0192970605108b841590879b0d9292840d8683878a85068e
088706928981078909030e0a908b88048c810f0b82080511
86158892918b9a908e11858603078f050d8b8d82948d0088
950388078e870b04000a8391008b09828403008592058791
06820281000106020a16858193890585978a818c820a090c
81088208028884070a8e8502828a0b03840682098e0a0203
9408090089048f8583148602000614021091110285961003
9b8603150196860284880c85010a89868700060b8108000a
8416858487828d87000889128300038c85040f9590121400
1192050e0294930304010e8f83110a968d8d0f928e009183
0f168b0d8d12930b810a8b0f1b9205820a108707008a1516
86010807868910000d03920b8484058e9c0b92858f8e9113
8b99840317088f84860401038f8a07140911060f8584028d
00938105000f8113058202930f0d0383099a0d9402979081
89958b8a8fa089859c86108c89830c038c83879402859000
118604938c0800810c1083030a0a068992038f0011821b1a
000e088b829b8f0183840c00160d1e888b110e9391868a8c
160f871b8c078587058a1f810c058111828a05180e0a8119
8201908d06030789010387088e0c0c0f81078795868b0a86
0a8706160383071b0d1e020209830f0e8d0e158b0a049282
8a001e8291010c90839492040b0984868b08068c138b0a8b
8d030509898c0d1383030c81841b8100000204048b00810a
8a0a08890c8296838707890a1b0200958114880d148a141a
829091088b03810e8793860d0b0581968f0482998702040f
07820e0785218586170b850416200ca00205888b090f8a0a
83970486978588068e0b8d91101e089a04061a070e848b01
040e0088868207991386121f031414051389848c02868484
8b038e8a020f08830800050c8215050f00060d940d0f0b06
16910f128c0985880b9288108316020c880e0e19030b0e1c
8f14938b829603930a000c058b8a0501088187100315008c
060a03838c87860d0293018b85810493908c8c01000e0b81
0e098a06850099850b9607928911048d0d8590098900060d
03078b068603170b86058188121406070d0a93068f128c8f
0f0a8d86050688061108930218938b100d05840c87048d0b
8f030b8604890a03850a088a1b0a870a8e92090205088605
820e828c8803838a838d010d008582878da086068e901282
160a931413120b0210020008059b81111d9a080c07831882
8f900c8e8a9d868e8e9793020d81898d8802828b08059385
84938381090d8d19010d8b0d89920a0914818586810c0792
9e9a87908d8a8c8e9a01828a030a8a0304810102978b8e00
07058b8f049407190691060b880988048c84058992828905
010d0805080609028500048319108302098303858509070a
0a939395938c8e8d810a9d149a009105849382968b8f9107
081b8516121c0e11058d0008198e870e00040b090c080b00
8a0186080b93849b8803000c10108403860b8e9193070714
188982131812831c0d060a8787839b248110040a1e84860b
00170d91100308858c920487911f0e88041884930d130802
100c851e0a86031f870e8208068389110a8d86020b860501
8c84018f908a0802890f0b058e908181810c8f8b1105028d
1214088e8c0483871193840107810f958f09050c81828112
100a848b86898f06180d020b021a9f0b0d008d91198e8506
0a140188020a02852000820b890692058e04020c08810f0a
0d108d0b831304000209150e8699040d0d001b090d0b0288
00118d8e85018b010d029314868c03848186948a01858918
8611878694818981840681858e000a12068992010a009489
85060116901c840d1189881804811708811f018e0c12090d
148886090a040f90858f91948805910f818a068a878d0f11
000f0f0d018402880405118d98010219031103180e0b8f03
8b0a121487180d92051a1202058181100004088b09178e8f
8c92078584848c9a9910879b8e0009008f8e868a9801a391
0d85060396129d1d0b92098686088b92060b14821d0a141b
0c0994138a8a158d0801810484060c00878d139197839283
858785010318898e89879019090d078d021f028717078519
0b8d89099a840a918b878301940b898c9602138f85179390
0307848e8b040204048e028515820b8b04080589860e010a
868a1007840183869a8a8c818c1801869391038e08829695
88098689060489940f8b150d87810d928c0e0a990a050012
0a9501839a9b820a01108111890f06859c0f030582978f81
95008c1506968a9001888d10011516898707150b8e098899
8f87041b0695039302858b829a13939f8b85028b8a108802
930884018a81868e81148f0c900c02018281030007198e05
9088811883060a8a818691900e818b878899059482028c87
83090405001183030f82008707158b08040412860b948d04
940e0881060515080d01901503050f9a81838a9684828790
910887870903869104120817878f06088c0986880a918e0d
8a090587949501930583820789108584061a009487840307
8791030f068688120b82811684890912010a098a13890784
84830801888d8984078b06820e8595038506820704128284
8482930a070388071588840c82130082041a820691040b12
0497820888020012060f080a83048e84890985078a8a0185
868f098c88140e0506818e94141309861509851901088c13
081484830a0d030b0b890f0410830b968a0602070a118506
1a88088e09839210000a140393068c0b8582870714118292
0404000a878b098803180e91898e8b088285850407000490
0b110a829408068202840207908b0c8481870093050d0d11
038a8587978d14848a0f85888f140987108d0404070e86a0
820689008a8192870c8d130d85020e8684138e858d848e07
029586028408000c0282160a0a88110a95028791978b0b82
960986958e058e86828c8b07040819a0859993a20d84088e
0488000f840c83080205848b08951b8b169e868407888a84
869081a18b85938a0087878a021513a0830a8a880b06820e
88140f0b8985100e01028606840402840904968884080f03
918f0510078309070c8d16840a899013000a9286090d9683
080381820c15821204878417058a069409868d0802030c00
0d090d050985138c090384060c8a0a89058b100612100885
86048a9793028c82098d8381842002078495879512908802
0c17860c0c831d0e930f1483840389088e8d880b8f070f9b
8685858886020d830406049916060187098c940385838290
04960a070b9708059f848d00829e09190399070283050094
1a0f9087860d87858699058483080c8b848f940d0b021508
0a988c11058b1403830b11068b8a2205018300829700828b
0807858a88178714811c0a8787040e09848c11850d900a10
050d06050b8484040407070f08001b00030300858d018c8c
8e148a81108d840382128c8281840d120c00058515828486
8c8900908a1a080f1385859182051d878901018702818c8f
05078b860c1386100a0914088181908105068e8816028101
0181948102868a109081010b1b0b07869890088516088588
850019820c1a0d83928a88070601820b01880804970a1083
84060d930485030583908107820b8b8a028282871a878205
00018e0b1101891108040b840a8e0e05878e11188f09098a
0589860b0504868a83890e0e028a8681048d07068b81061b
83000a0b8c10860c0a170585930991098f85860b08871008
12180507010c818b8a0a171b1006879112110f0d93170182
0b000d8c8c83821387021285048218040081848d900a049b
840c0b82151083000786060e8614000b8703030b91041893
0a05079c8681819791068602821a0d02118b020800069601
92108102058c0e0808160d8b84060002058d9001878c8293
0283829f018481908493078b85128a8c138aa1060b099082
0b820301838c0f108591109613120c868d908d0f94858d87
05860a9e09188687819d908b0c1a1b810181039b8c828e8c
110d97058f9401028286839018040a028d8c1283900e8595
00108f85078c108b080d88830f0287888309908a01888290
85009589828415859284828c08041a8f878d190612991196
0a8a89028b88840485108f000c8406080890898802820589
000f8b0202038905078a890b818304888681868d02860098
0e11910e07059285848285060c11118903900e8513859109
01031697888b84130284818984060c0c0b84860992848609
8f8203841d03841784000c8104110c8a181c050b161a8511
0d8709890d8d0683020f9806100e84049003870093818313
0384918d021d0c011506159215068282151314888f0a880e
0a86150c11170682028a8f0898861101878c03040a818102
060282188803938791968d18888e14880085838a0b030c92
128a058f8e93050e1606031103080c9808000f820b8c0f0f
098f82819a8993980c8e0c0d06870288820285070e908d93
06840a0e15018c8c03198e8b8b1419040b980e9103870305
8982850b908707018f91078b32869212930884820c058e83
860182020709928a83820e0b8f0b06870b090b8c838d8315
820c0d890a8b028583880f8c001000820e8e011089060985
8d880d838505850487098a060009060f940f988a07038d0d
96068b0f8783880010108811020c01828f8d079492010a86
009b048a920093099803881604201a938205070883878a03
8112868f080d09128186840505038a8c0c000e0f0e838109
019e848f03950688098c09080d030b8194848497930f9781
07121a9b1b118402118e021a1807181505059b8625891f20
878d9108048486829305829a020b1508079412039084980e
850084130c20070c878f150307128c948100101085818b0e
0800900d8f0b111889830982028c18859791980283138a05
8c0685860f020f8b8e88939301060986118a8b0f0905028d
0a840b87859605099589810385030902868f86850c019216
190492848591170d8e018e07868a1604858d160588038591
02000808190a840781870c880d011004878594108d080307
04900b0b008783830f0f04908c1100110693088882850102
820d0b9711101400090b07820a8c090b02890f870b8e0309
0a85810c8e040c8307098b92898405108303878e040b8888
0682060c0105061b160889030481109281820485860c8308
0803888d86018e86030c110e258c0c868805038d03820f84
880c088b0600078d09848e851a141e889705810f0911050f
81138e8a838481820012840504010a8905018b878c86861d
8c878189921a0b06138a860f07832882048b8a0e91861d0a
9400870c10928a86889b82838a030601910b908b8d00848b
94869085820a8c138304058d0a0c8f84088c07838203008e
840081909286838e0d860a8e190e1105150514858c03850f
06990d8f051582060f070a840f1b0a90040e900a0d860607
0e8b83088c8d880a03008e050503878601108c8a128c8108
08160b8d948405040502880b88898b8b1715871412120a07
020107100e1b04811d020e0e0b8c9a0b8c0c0f87090d1712
8d871c130b8908848209811185108606078901820202818c
970a86018185850b1e960b010f8489161800898f1b0f1100
848587110e8b030a8f0e0587848c95020a851e0f96128792
871c079509068d8a190d820f2202888f901686818682030f
0f0803878806141d861b82928287180e8699000582078d01
1305150a0489058c810a89168a06060c00940608818d0487
850b8d13060285009a87818996920b0d0106010a96909a89
8a8e049e83890288819200971a12820409040a8f060d8593
000886940983860b168605000584968f8282810887010688
99890a020a0985088584998a8105840600859207080e8e85
0b898406900489881e99138686038f02108688901b09851f
8b081709009202910805870a868d8c908b130f9002080504
84080e03880b8406040a83890983909b84150f1811060a07
0e85039183040b13128e8287070f94828881088a858f8688
01868117878600810b000c100d020b9185028f0209908a08
0a07860f089182100a8884810f8e08018a8202068d81830f
0c8e0204899981018e008c908b8f860082810d058498999b
0185108e1017018606948101038108881291868696851384
108e888b0583848d8f0d83900b0608118c05010e0d899385
02968485908c83828393840191828d050987128c048a8e8f
8a050290829103829d0c988c94170b0001048c819d848a81
0a830082829587928791919c0a00880182948e819696128a
11880004830c0a0c0994178f0b12148e0b9b84040e011389
040097860b14090a0d82068a00038a928802818d8297080a
088f821002048b12040704030d150206840d088c8d090482
080b1986140b040e0c8c09080c840305858f0f88920d8706
09820586041a13818a0b860b090f9913000188850b13040b
938c010196818b10890707140d0290860d001391828a0e8f
20828c05030e87860605880c8b898e0f89880686100c0006
8f83090a07880a94068488860307110c008d14070187828f
8a058d93828c8e8f0104889396830588868e8e1294008e00
0408010c1a03071e858204050685811b0385880b83860c0d
87098a030b9210898d0e8d1185178d850f9c0c848c821098
01100297030188180a830f071a020f071503921e1388040d
8d0682838f95891405878d0717880004130a829104008c8b
0a00020f09080404010b05088100050f181508111c810e8f
09840f07060e000719908a81890505130702858318100b0e
0a911a0f0e1999868481030b870a858a098d8a1b0d0d0d19
8a1603098e18118c828202821787848903068f058d060283
990c8c0483898c900c8e90000a8a06880606909584918595
0b0989078d8b0d030796078a878c130c0a8a831800870605
0489938c939081a088050301061a82888b8703818d8b0094
1690030f8709150a15848c0a11868a0d8881101919860594
8589168d81828104000784020f0c8e9002000b01838f0589
8b0c8107068b9184108a0500938a8282108586038284871a
858e8897018d921191830101070a0b0d060d870f08081091
870e0f8a8e178d008e8a89920182110004810d890e850604
06058b8804060b060c818f81950789178c0307858a018886
07098b02010181848a85860f8e948e04108701841706820b
8b8204948c940b94018c02830d918d94810c001781820219
100e8b0216028c068e1b129382899214080000078c018387
82100682080d018d0a9f0a9504898f010b00040986040b88
07009a0b1383810502040a89909a8f17088c810681878b9a
8482850e1c11888c060201100787851505031385838b0c83
85828e020b110b030389828a01819207020d0417020a0c86
090c01178b860f16861906872289830087038409890c1594
858a88110a10030502858201070183870b0e0c8802828986
0d818c0b0a8f09000784068101048c1383830c0606860d0a
08061683840c0096138c02039481a50d05140c0908150207
1101830f8711948d8f0b03890788868c0683878a86051314
84108d900c1c0e8e0b84978499838e06100604010e0b9002
8990188d9f069b82078706888b039387820c819695028c02
8815878205888394018c87898c129290080912088692840c
8c0489848687900287051085050694879c11829b06030496
928805908a0d048401890e8b000097840003108f89848194
8e0496008f8a0a92088b828a838f068d8987818684048384
008b86879991100d8881038e8d848f090d89820383058f89
0d908e0202811201859701898b8104839188158c88850502
8b968c01948802898c0188048b018206858c9405098b8601
8590069405138b910205820c8c8281868e05108813108100
0f83158d01990b838b8904900488029e8a91010700070e82
090e09830e240000120c858918088f8f13119602830a8a82
0a8d828c100e0e8209110801029614050590950d8e918e0f
12840d10840c0c1081028b880c160708919484870411118a
8a010e05840a99158d88040a8e1381900583858183008802
088f848800818414088704890a8e850d83000a8206040e8b
00820c858e848586040081850b09059d010e098c86a19802
048a9087008106128a030f03818e0b8f8602851883080682
8a8905128885959706840189021f0d8691920085888e0694
0b8308150d020893880a0701850607050807848502840905
8483090391118a008b029305840d8b0b90001090038b0f8b
8d0589870c00828501079507048a00008489068a86928a15
03118187080c0f890c1307028a24840384068787070c1087
878a8d9f8e83968282828407898e030889069b8d088a0702
071294068390820814040984110c818d8e8a0b05068e9186
91a00503889501048b01838a830f0982810b858e0b829707
038e031009a017060417008b85868d038e8405078d820a86
878f0d92090e0c1306878786920306830c86970616860585
850b8481828a1518998c170d19980d08998786900b028b97
06068b941314038186898e8b18030015148a00060312090b
938a180c088b8a208a8e8291129b14049b041005100c0e8e
0c8f06928414050c050700091c008a0f0189041c040f1884
838e8184108781160c140c02818d23838d0912168d870204
8281000502060487090d048e8c9611968605028783069416
850406090008970781110b11818f0a0c03020f8f810b0704
05020389058c82818482071100000601090d010a8e050097
8d1789060c0b08920705831a090405880505910c02948884
87088b028c8e0310928e898d8e008e858e9603008e038503
93858a81820b8603858d0e898183080312850811818a0588
040317959300879801928b08070104950886088b198c0186
9081040e8f0785018384070d07168e018b82810e07068e82
051194970f09010688880292160b120e0f1289870e0b0501
03068b9304968a86848b0883068f0483120482890f091183
8d06830a910d8e9106028801830f8a88868b830d0d058700
010413098a8e138b9813028e8c88928490890508098e8f90
178e868309058a988e050683818882078a86938e85958994
8588138e0d8505038e8a8981018a94030c01810003100d08
180c810c0c8283100108829611940584188c828207160802
8786108304830089101408888a8d0c108103108e82810309
03888c820200120c831309830b8702840202860e81859590
04011189091a0b88040516098908a685060c1487118a0503
87028901070503010416030c0c8303000a040f02828c148c
0509848d071181870310820b938284890d02071b1f970687
100d920307828607890918920708098b0607870e09160206
088202999708090010858c958a0d02071b848a0707830d85
130e15100c1106050a099509848e080284851803958e0708
84028408050208008200881186929c870c07840187861488
8a8d85009690990d05909395818f8d820a8e090504849109
81949b018607138b8e81098f87879683148b820390840286
848d878b180a041400880c0a8388048a0013030581071107
0b8e000c1901060488028c928a068182088e8d008312048b
81128c038e078a8388898a08098202838b14829002888784
108e0907898b0e8d971284880192138608a004899d189195
8d01840d998483191183831506828610848486870308010a
8b0f8d1c908a93080b1202060a1019830b06838a11810c83
0200859790811489938187020b0b85829793130181849903
860507079097879507048a84108f8c918700818382948a8b
87090010051812041393081290010a0793858811158a1513
060a098d9206028792869a8d82920893920484008e8c8a01
080086870e0292068d92011283048c01008d8f830607869c
87888d0595a0860e8a059d9506820395920501818d010000
90021718888c86888389048b049885841184040293829210
849491079c9d8f820d8e020b89040d82119201030b9c8f15
8e840200038110020104010f97a1940908020d818a810208
86088c8b8b8407890d09048219099988891e03080a011a0c
0087830c008e0c8311168e0a849893821817098510118518
0a018384011a81870b851111101a87040404100813810702
848486068b86109000070a8d0f08050b930886858a098483
8c840a010e0b01861905148382841501080109890c878491
07818a8206130d850a07030b040793100e928a188e189284
858e1686898181028901000a00810184828483068a859a91
948d92821889028108950c031a0203020685131083030a81
8d058a0b03870d0d8d8d92821789110c070983838b81828e
16038a8a0b0087050c070f82848a8f030b0684930f198d04
108c01860117010583180b85020c03010188911192891102
0904011700008b8a84831485999484961b000903070e0114
07818c1209080d0f8d1b18078e8b860d101085828f878b81
918c08838889000607088a8f8f0b8a02938d078f89849687
8484949610090e0581848b82810c030a05048d958b8a9189
0000000000000000a2a4099d0411030a03a908030c9203b5
000000000000000006a7a0ab9a9d03b7960c950a9688160e
0000000000000000070d01939698be0aa1060b0392018e06
000000000000000084b60e929e8bad0a0a0c989e999995ad
00000000000000008b13b18a061000a9a60a09099d0705a0
000000000000000009a60e939a990002099daca39d840008
00000000000000000a0d0b8e028404b308aea0ab04900db5
0000000000000000959eb5159d9eb5079e0c09089903820d
0000000000000000050b08120388920303a108ae0d068a09
0000000000000000ac10aa18a3178103a09f8aa60a01160e
3332138116810882902713010091933933270199a7253936
3f172f9210819097a1241914978b85331735ae988a3f2847
3117289800029d9c0e2538148c978a463605a88484483138
0887110212018d940c8910268c0889890d200f87810f881d
201518120010038d08251f098ba8942a18189686871b1120
1f1b198b02038b9a1606018a88ac0d14241d9faa0423211c
0c1698091b09998316080d06a991850e17009c090d1c1705
211692180686aa870f11150190040513048197900a0a8903
0c0e138a088e858396830c08898e82050b00938b0c21000d
06210c9b130b030498010006860f9913150706019a190402
08201b84028d9097881e240c9792070e8117899c9b071b1a
811615900184908990860a1884860883130f818a01021383
a48505161b1d12261b8a8f228319868b9609160311a58508
958a1a04810d0d1911078b041118139f060c0c2105098709
9308171e0809061c061408060d16108d0187281c240e0d14
070a12810707090b01868a0788010c220809980c0f290b0c
05010008858a8d0c1b1b0993848804160f158f84811a1f89
0c08890b12950e8b0c0a1d85908c2417120306031c160497
160aa288098798081a26028a058d06071b829a86811b0d91
120603100e818418831c150302851c08088ca2180a0f9389
0817020f8a85a5910b1d0e86908a0e8b0c829381820e1411
0c2d159e948a9a9b0f0a2b0e9e868c342901a5a091262611
2b0b038b0d1c9193091c3003a1a00023220eac94053a1d82
150c030b1507890005242f0d8f09141315988d0e93190790
058312020105148e8413160b02899700072309018c940829
1023070a8513018388040122929f880f1e1993889b0a8a25
8e04130991188b060a100c008c98158f11040f908a0e0083
0286880697059007160a84870b97100a0b0b881187168506
028b9102008a8d0d1286878f8d8a0b0e810f0a8e0d07010d
8f888d81128a018794860f0e949586810207020c8d07008e
10040e158f058e0f0587018e038f8f120283019c0c898d98
07120c9712828a8114859114860b09860018098d84861a82
9a890989178b05078907030f00921002819684040d8b8897
1b00090d890a0505848c0b1c048d8c001008028615880715
92848c131000978395090988109a0b0300930b02038b0716
8c13000201030f908185821504070602030b0a130b128602
1089078c078c83880d0f83030b110e8b10050a0d89091200
080682031796068794170015109110168987108100068711
088f110f82030f83070b8f8781980a0f088a01050a879113
0388111188990f83891f84038e8c0504949c0b89900b0708
020a1104080a928e060b0194098704010a110586908a021a
01930b0d0d890491850b0311049501058e01020202848c81
81168e821201820c0683888187060501820d81030f038503
8396830f9605848a011689030a100c9a0e048f88910a8b93
8a00818d00071a95068e99868e0487958981818604058217
890a00899f828c948a059b0a8684118f8e8204820309a086
830a0506930a0a970d868a91040097050f0904840592918f
88018404110b001084100f839b028a018a01078591889382
8b018a85820389898d118e81858f090d8d10108c88900284
0400890f168a150c8f05838c8e0e03089591128e02079d84
858100979611960b8f068182080007088e87888f81850606
8a060b060d83858886068d8c1000050b8e011684070d8f07
9304058d94898106018a8c868d9311020e010f030a810911
9a1404928202058c0885048a0e968f9088880a948112820c
108602810190910a02891006050b81879302910604848c8d
8a968402868483060f980c90891882080890080012028a8f
0f088583110c07080882039a040e020e8813820388050007
94820601858218118481050d0b8593050f0818030d838e86
0c08898c0d0b948e11860490998d908286108d1194109506
008b0785820004980482148a07968e8c8987038600088505
010c83058194838704048b02838210820a84930a07848b83
0d1294068911890d05810815030582870306869189820983
91028197960d878c038482109111918a85878b8501828505
0989879a900a8710830681000205110282078a0587848881
8d8585978686018383140110880a870b118e8c9283078e01
928c98859205990606848a8691090310019386978b0a8783
87869993828b8b0190028516830a100a0b8f84140d060582
8f06830208120d0404918b0714021300070c81888b840094
0f810d8d8688081405038d8c8909030b9502180310070300
85060e028c010201068501848f011094900b97928308818a
0406839087030f84078b0404078908979a050c8504978490
8786081183928f90830d86008e0283130e86040d83070e8c
07878d0387020101878a8b8f8c0c81948681070a93898183
030a85101314010c90101003928c828f0d1310031210028d
120c038c96840701000d8c00178d89838f061207090c0188
860102068d0d04061102081404910b018a87061882098f82
028687088a988101828b8b96058a0314028c108a08068317
8a818286088108810f1589868307920e8895018912880d00
81088686980b8a0f088492018e901806060309098b858d92
8105180a830090940301150d8d0c068882040b030a8d9a8d
8b87899712810407878d0101870c0905050a0007060f090c
02068b950886080d180e0f8594039201050f8b11890b8498
130413960906078b8e9183928e958d920984840891848e92
0008060100830d8790849386988f820606850c0a84058386
060783969303058782018b95100d0f01948e028b958a0c84
8d020b018c8790090d87851015000187008684868e079509
89070c81108a14928d1317848f81188d0b06010505810288
03829900908787029682068304831286838c08828f120284
8b0a12088900080a89990886039102028198978603868f81
040786018f818e86909881140204818188110d10060e0512
02828d8294088f03888604058f080d818f0c130481858313
07018816810703890f89020498019a078904020a8c02118a
8e868d91938e071483000c15870595860c0f028705838592
068786049290060e0189068b8c8a86820e880398138e0e00
09099088990383810206910d019602990500068a8c0e038d
0291848481090b0c078b0901088307860986900400810e84
840b118a890293878c8303918706100884850d9284998a81
8c8619078390081085078a148c030b890600130286848888
050b031008860a8b86819209100b0611060b910d06828c0e
03908a8d860988848309060312920c089188089881851787
9386058802878b1705158204008f8286010705058713120d
938786868285108f0f001106968f8b81888489950c880a82
8185048e8f8d82180e01080a029008070d840199848b818f
15820086088e92028a8f090e860b860b0a0e928106008887
0b0485098f8e8386938e0a00960381810784091702938a8a
048d8d1086908598988d0502890b82828705870a8b04018b
95978191038f92819585148e0911039b9984000301998212
840200870a0e0407988e86061092810b83858b0894810004
8c07870d090d118f8904100a0b868d8502048688090a1409
1792850e940b8c08110003850a8b84080a17950500040c05
0a140b810c01828a88830400820009068c81831190878d86
88190b980c028d8c860682018c838d930a8a8e1c07028581
81058985059f0c11950a0083818c8a030484830f0e180d88
02048995080f8c8981888c9183889c04868285090814140c
17049c8f87088d020e880b810785061701850e1809058384
8c8f82088d0486890c830388088589928298850590130393
85940182911082041104849a05830582050481108a81038c
060888070485920b86878a029b8e880f060c8d05038d0984
0f908501830d8a828911199288009b0a88058500830d030f
0c011c85230a980f15850f0e0b9a8313850d84178102130e
12868b888d0d14068b0711008f098c140000000d9c0b8b07
881a8a078e088c10158d8488039a8d8f0a898d09828f1011
839492890205128181830e038b01080293830208888610a6
8a000b850205930c03048e8e0a1409910308010290188e06
860f9416030982920c828b8b008b1e8d0283888288000196
02860c0b898e098c8215008d81820c918a83040684018f83
10098d0684888b92108b0e8d8286848f0b959706858e1108
0b9d920c048484009889038f8a0310838191120500088c06
0192970605108b841590879b0d9292840d8683878a85068e
088706928981078909030e0a908b88048c810f0b82080511
86158892918b9a908e11858603078f050d8b8d82948d0088
950388078e870b04000a8391008b09828403008592058791
06820281000106020a16858193890585978a818c820a090c
81088208028884070a8e8502828a0b03840682098e0a0203
9408090089048f8583148602000614021091110285961003
9b8603150196860284880c85010a89868700060b8108000a
8416858487828d87000889128300038c85040f9590121400
1192050e0294930304010e8f83110a968d8d0f928e009183
0f168b0d8d12930b810a8b0f1b9205820a108707008a1516
86010807868910000d03920b8484058e9c0b92858f8e9113
8b99840317088f84860401038f8a07140911060f8584028d
00938105000f8113058202930f0d0383099a0d9402979081
89958b8a8fa089859c86108c89830c038c83879402859000
118604938c0800810c1083030a0a068992038f0011821b1a
000e088b829b8f0183840c00160d1e888b110e9391868a8c
160f871b8c078587058a1f810c058111828a05180e0a8119
8201908d06030789010387088e0c0c0f81078795868b0a86
0a8706160383071b0d1e020209830f0e8d0e158b0a049282
8a001e8291010c90839492040b0984868b08068c138b0a8b
8d030509898c0d1383030c81841b8100000204048b00810a
8a0a08890c8296838707890a1b0200958114880d148a141a
829091088b03810e8793860d0b0581968f0482998702040f
07820e0785218586170b850416200ca00205888b090f8a0a
83970486978588068e0b8d91101e089a04061a070e848b01
040e0088868207991386121f031414051389848c02868484
8b038e8a020f08830800050c8215050f00060d940d0f0b06
16910f128c0985880b9288108316020c880e0e19030b0e1c
8f14938b829603930a000c058b8a0501088187100315008c
060a03838c87860d0293018b85810493908c8c01000e0b81
0e098a06850099850b9607928911048d0d8590098900060d
03078b068603170b86058188121406070d0a93068f128c8f
0f0a8d86050688061108930218938b100d05840c87048d0b
8f030b8604890a03850a088a1b0a870a8e92090205088605
820e828c8803838a838d010d008582878da086068e901282
160a931413120b0210020008059b81111d9a080c07831882
8f900c8e8a9d868e8e9793020d81898d8802828b08059385
84938381090d8d19010d8b0d89920a0914818586810c0792
9e9a87908d8a8c8e9a01828a030a8a0304810102978b8e00
07058b8f049407190691060b880988048c84058992828905
010d0805080609028500048319108302098303858509070a
0a939395938c8e8d810a9d149a009105849382968b8f9107
081b8516121c0e11058d0008198e870e00040b090c080b00
8a0186080b93849b8803000c10108403860b8e9193070714
188982131812831c0d060a8787839b248110040a1e84860b
00170d91100308858c920487911f0e88041884930d130802
100c851e0a86031f870e8208068389110a8d86020b860501
8c84018f908a0802890f0b058e908181810c8f8b1105028d
1214088e8c0483871193840107810f958f09050c81828112
100a848b86898f06180d020b021a9f0b0d008d91198e8506
0a140188020a02852000820b890692058e04020c08810f0a
0d108d0b831304000209150e8699040d0d001b090d0b0288
00118d8e85018b010d029314868c03848186948a01858918
8611878694818981840681858e000a12068992010a009489
85060116901c840d1189881804811708811f018e0c12090d
148886090a040f90858f91948805910f818a068a878d0f11
000f0f0d018402880405118d98010219031103180e0b8f03
8b0a121487180d92051a1202058181100004088b09178e8f
8c92078584848c9a9910879b8e0009008f8e868a9801a391
0d85060396129d1d0b92098686088b92060b14821d0a141b
0c0994138a8a158d0801810484060c00878d139197839283
858785010318898e89879019090d078d021f028717078519
0b8d89099a840a918b878301940b898c9602138f85179390
0307848e8b040204048e028515820b8b04080589860e010a
868a1007840183869a8a8c818c1801869391038e08829695
88098689060489940f8b150d87810d928c0e0a990a050012
0a9501839a9b820a01108111890f06859c0f030582978f81
95008c1506968a9001888d10011516898707150b8e098899
8f87041b0695039302858b829a13939f8b85028b8a108802
930884018a81868e81148f0c900c02018281030007198e05
9088811883060a8a818691900e818b878899059482028c87
83090405001183030f82008707158b08040412860b948d04
940e0881060515080d01901503050f9a81838a9684828790
910887870903869104120817878f06088c0986880a918e0d
8a090587949501930583820789108584061a009487840307
8791030f068688120b82811684890912010a098a13890784
84830801888d8984078b06820e8595038506820704128284
8482930a070388071588840c82130082041a820691040b12
0497820888020012060f080a83048e84890985078a8a0185
868f098c88140e0506818e94141309861509851901088c13
081484830a0d030b0b890f0410830b968a0602070a118506
1a88088e09839210000a140393068c0b8582870714118292
0404000a878b098803180e91898e8b088285850407000490
0b110a829408068202840207908b0c8481870093050d0d11
038a8587978d14848a0f85888f140987108d0404070e86a0
820689008a8192870c8d130d85020e8684138e858d848e07
029586028408000c0282160a0a88110a95028791978b0b82
960986958e058e86828c8b07040819a0859993a20d84088e
0488000f840c83080205848b08951b8b169e868407888a84
869081a18b85938a0087878a021513a0830a8a880b06820e
88140f0b8985100e01028606840402840904968884080f03
918f0510078309070c8d16840a899013000a9286090d9683
080381820c15821204878417058a069409868d0802030c00
0d090d050985138c090384060c8a0a89058b100612100885
86048a9793028c82098d8381842002078495879512908802
0c17860c0c831d0e930f1483840389088e8d880b8f070f9b
8685858886020d830406049916060187098c940385838290
04960a070b9708059f848d00829e09190399070283050094
1a0f9087860d87858699058483080c8b848f940d0b021508
0a988c11058b1403830b11068b8a2205018300829700828b
0807858a88178714811c0a8787040e09848c11850d900a10
050d06050b8484040407070f08001b00030300858d018c8c
8e148a81108d840382128c8281840d120c00058515828486
8c8900908a1a080f1385859182051d878901018702818c8f
05078b860c1386100a0914088181908105068e8816028101
0181948102868a109081010b1b0b07869890088516088588
850019820c1a0d83928a88070601820b01880804970a1083
84060d930485030583908107820b8b8a028282871a878205
00018e0b1101891108040b840a8e0e05878e11188f09098a
0589860b0504868a83890e0e028a8681048d07068b81061b
83000a0b8c10860c0a170585930991098f85860b08871008
12180507010c818b8a0a171b1006879112110f0d93170182
0b000d8c8c83821387021285048218040081848d900a049b
840c0b82151083000786060e8614000b8703030b91041893
0a05079c8681819791068602821a0d02118b020800069601
92108102058c0e0808160d8b84060002058d9001878c8293
0283829f018481908493078b85128a8c138aa1060b099082
0b820301838c0f108591109613120c868d908d0f94858d87
05860a9e09188687819d908b0c1a1b810181039b8c828e8c
110d97058f9401028286839018040a028d8c1283900e8595
00108f85078c108b080d88830f0287888309908a01888290
85009589828415859284828c08041a8f878d190612991196
0a8a89028b88840485108f000c8406080890898802820589
000f8b0202038905078a890b818304888681868d02860098
0e11910e07059285848285060c11118903900e8513859109
01031697888b84130284818984060c0c0b84860992848609
8f8203841d03841784000c8104110c8a181c050b161a8511
0d8709890d8d0683020f9806100e84049003870093818313
0384918d021d0c011506159215068282151314888f0a880e
0a86150c11170682028a8f0898861101878c03040a818102
060282188803938791968d18888e14880085838a0b030c92
128a058f8e93050e1606031103080c9808000f820b8c0f0f
098f82819a8993980c8e0c0d06870288820285070e908d93
06840a0e15018c8c03198e8b8b1419040b980e9103870305
8982850b908707018f91078b32869212930884820c058e83
860182020709928a83820e0b8f0b06870b090b8c838d8315
820c0d890a8b028583880f8c001000820e8e011089060985
8d880d838505850487098a060009060f940f988a07038d0d
96068b0f8783880010108811020c01828f8d079492010a86
009b048a920093099803881604201a938205070883878a03
8112868f080d09128186840505038a8c0c000e0f0e838109
019e848f03950688098c09080d030b8194848497930f9781
07121a9b1b118402118e021a1807181505059b8625891f20
878d9108048486829305829a020b1508079412039084980e
850084130c20070c878f150307128c948100101085818b0e
0800900d8f0b111889830982028c18859791980283138a05
8c0685860f020f8b8e88939301060986118a8b0f0905028d
0a840b87859605099589810385030902868f86850c019216
190492848591170d8e018e07868a1604858d160588038591
02000808190a840781870c880d011004878594108d080307
04900b0b008783830f0f04908c1100110693088882850102
820d0b9711101400090b07820a8c090b02890f870b8e0309
0a85810c8e040c8307098b92898405108303878e040b8888
0682060c0105061b160889030481109281820485860c8308
0803888d86018e86030c110e258c0c868805038d03820f84
880c088b0600078d09848e851a141e889705810f0911050f
81138e8a838481820012840504010a8905018b878c86861d
8c878189921a0b06138a860f07832882048b8a0e91861d0a
9400870c10928a86889b82838a030601910b908b8d00848b
94869085820a8c138304058d0a0c8f84088c07838203008e
840081909286838e0d860a8e190e1105150514858c03850f
06990d8f051582060f070a840f1b0a90040e900a0d860607
0e8b83088c8d880a03008e050503878601108c8a128c8108
08160b8d948405040502880b88898b8b1715871412120a07
020107100e1b04811d020e0e0b8c9a0b8c0c0f87090d1712
8d871c130b8908848209811185108606078901820202818c
970a86018185850b1e960b010f8489161800898f1b0f1100
848587110e8b030a8f0e0587848c95020a851e0f96128792
871c079509068d8a190d820f2202888f901686818682030f
0f0803878806141d861b82928287180e8699000582078d01
1305150a0489058c810a89168a06060c00940608818d0487
850b8d13060285009a87818996920b0d0106010a96909a89
8a8e049e83890288819200971a12820409040a8f060d8593
000886940983860b168605000584968f8282810887010688
99890a020a0985088584998a8105840600859207080e8e85
0b898406900489881e99138686038f02108688901b09851f
8b081709009202910805870a868d8c908b130f9002080504
84080e03880b8406040a83890983909b84150f1811060a07
0e85039183040b13128e8287070f94828881088a858f8688
01868117878600810b000c100d020b9185028f0209908a08
0a07860f089182100a8884810f8e08018a8202068d81830f
0c8e0204899981018e008c908b8f860082810d058498999b
0185108e1017018606948101038108881291868696851384
108e888b0583848d8f0d83900b0608118c05010e0d899385
02968485908c83828393840191828d050987128c048a8e8f
8a050290829103829d0c988c94170b0001048c819d848a81
0a830082829587928791919c0a00880182948e819696128a
11880004830c0a0c0994178f0b12148e0b9b84040e011389
040097860b14090a0d82068a00038a928802818d8297080a
088f821002048b12040704030d150206840d088c8d090482
080b1986140b040e0c8c09080c840305858f0f88920d8706
09820586041a13818a0b860b090f9913000188850b13040b
938c010196818b10890707140d0290860d001391828a0e8f
20828c05030e87860605880c8b898e0f89880686100c0006
8f83090a07880a94068488860307110c008d14070187828f
8a058d93828c8e8f0104889396830588868e8e1294008e00
0408010c1a03071e858204050685811b0385880b83860c0d
87098a030b9210898d0e8d1185178d850f9c0c848c821098
01100297030188180a830f071a020f071503921e1388040d
8d0682838f95891405878d0717880004130a829104008c8b
0a00020f09080404010b05088100050f181508111c810e8f
09840f07060e000719908a81890505130702858318100b0e
0a911a0f0e1999868481030b870a858a098d8a1b0d0d0d19
8a1603098e18118c828202821787848903068f058d060283
990c8c0483898c900c8e90000a8a06880606909584918595
0b0989078d8b0d030796078a878c130c0a8a831800870605
0489938c939081a088050301061a82888b8703818d8b0094
1690030f8709150a15848c0a11868a0d8881101919860594
8589168d81828104000784020f0c8e9002000b01838f0589
8b0c8107068b9184108a0500938a8282108586038284871a
858e8897018d921191830101070a0b0d060d870f08081091
870e0f8a8e178d008e8a89920182110004810d890e850604
06058b8804060b060c818f81950789178c0307858a018886
07098b02010181848a85860f8e948e04108701841706820b
8b8204948c940b94018c02830d918d94810c001781820219
100e8b0216028c068e1b129382899214080000078c018387
82100682080d018d0a9f0a9504898f010b00040986040b88
07009a0b1383810502040a89909a8f17088c810681878b9a
8482850e1c11888c060201100787851505031385838b0c83
85828e020b110b030389828a01819207020d0417020a0c86
090c01178b860f16861906872289830087038409890c1594
858a88110a10030502858201070183870b0e0c8802828986
0d818c0b0a8f09000784068101048c1383830c0606860d0a
08061683840c0096138c02039481a50d05140c0908150207
1101830f8711948d8f0b03890788868c0683878a86051314
84108d900c1c0e8e0b84978499838e06100604010e0b9002
8990188d9f069b82078706888b039387820c819695028c02
8815878205888394018c87898c129290080912088692840c
8c0489848687900287051085050694879c11829b06030496
928805908a0d048401890e8b000097840003108f89848194
8e0496008f8a0a92088b828a838f068d8987818684048384
008b86879991100d8881038e8d848f090d89820383058f89
0d908e0202811201859701898b8104839188158c88850502
8b968c01948802898c0188048b018206858c9405098b8601
8590069405138b910205820c8c8281868e05108813108100
0f83158d01990b838b8904900488029e8a91010700070e82
090e09830e240000120c858918088f8f13119602830a8a82
0a8d828c100e0e8209110801029614050590950d8e918e0f
12840d10840c0c1081028b880c160708919484870411118a
8a010e05840a99158d88040a8e1381900583858183008802
088f848800818414088704890a8e850d83000a8206040e8b
00820c858e848586040081850b09059d010e098c86a19802
048a9087008106128a030f03818e0b8f8602851883080682
8a8905128885959706840189021f0d8691920085888e0694
0b8308150d020893880a0701850607050807848502840905
8483090391118a008b029305840d8b0b90001090038b0f8b
8d0589870c00828501079507048a00008489068a86928a15
03118187080c0f890c1307028a24840384068787070c1087
878a8d9f8e83968282828407898e030889069b8d088a0702
071294068390820814040984110c818d8e8a0b05068e9186
91a00503889501048b01838a830f0982810b858e0b829707
038e031009a017060417008b85868d038e8405078d820a86
878f0d92090e0c1306878786920306830c86970616860585
850b8481828a1518998c170d19980d08998786900b028b97
06068b941314038186898e8b18030015148a00060312090b
938a180c088b8a208a8e8291129b14049b041005100c0e8e
0c8f06928414050c050700091c008a0f0189041c040f1884
838e8184108781160c140c02818d23838d0912168d870204
8281000502060487090d048e8c9611968605028783069416
850406090008970781110b11818f0a0c03020f8f810b0704
05020389058c82818482071100000601090d010a8e050097
8d1789060c0b08920705831a090405880505910c02948884
87088b028c8e0310928e898d8e008e858e9603008e038503
93858a81820b8603858d0e898183080312850811818a0588
040317959300879801928b08070104950886088b198c0186
9081040e8f0785018384070d07168e018b82810e07068e82
051194970f09010688880292160b120e0f1289870e0b0501
03068b9304968a86848b0883068f0483120482890f091183
8d06830a910d8e9106028801830f8a88868b830d0d058700
010413098a8e138b9813028e8c88928490890508098e8f90
178e868309058a988e050683818882078a86938e85958994
8588138e0d8505038e8a8981018a94030c01810003100d08
180c810c0c8283100108829611940584188c828207160802
8786108304830089101408888a8d0c108103108e82810309
03888c820200120c831309830b8702840202860e81859590
04011189091a0b88040516098908a685060c1487118a0503
87028901070503010416030c0c8303000a040f02828c148c
0509848d071181870310820b938284890d02071b1f970687
100d920307828607890918920708098b0607870e09160206
088202999708090010858c958a0d02071b848a0707830d85
130e15100c1106050a099509848e080284851803958e0708
84028408050208008200881186929c870c07840187861488
8a8d85009690990d05909395818f8d820a8e090504849109
81949b018607138b8e81098f87879683148b820390840286
848d878b180a041400880c0a8388048a0013030581071107
0b8e000c1901060488028c928a068182088e8d008312048b
81128c038e078a8388898a08098202838b14829002888784
108e0907898b0e8d971284880192138608a004899d189195
8d01840d998483191183831506828610848486870308010a
8b0f8d1c908a93080b1202060a1019830b06838a11810c83
0200859790811489938187020b0b85829793130181849903
860507079097879507048a84108f8c918700818382948a8b
87090010051812041393081290010a0793858811158a1513
060a098d9206028792869a8d82920893920484008e8c8a01
080086870e0292068d92011283048c01008d8f830607869c
87888d0595a0860e8a059d9506820395920501818d010000
90021718888c86888389048b049885841184040293829210
849491079c9d8f820d8e020b89040d82119201030b9c8f15
8e840200038110020104010f97a1940908020d818a810208
86088c8b8b8407890d09048219099988891e03080a011a0c
0087830c008e0c8311168e0a849893821817098510118518
0a018384011a81870b851111101a87040404100813810702
848486068b86109000070a8d0f08050b930886858a098483
8c840a010e0b01861905148382841501080109890c878491
07818a8206130d850a07030b040793100e928a188e189284
858e1686898181028901000a00810184828483068a859a91
948d92821889028108950c031a0203020685131083030a81
8d058a0b03870d0d8d8d92821789110c070983838b81828e
16038a8a0b0087050c070f82848a8f030b0684930f198d04
108c01860117010583180b85020c03010188911192891102
0904011700008b8a84831485999484961b000903070e0114
07818c1209080d0f8d1b18078e8b860d101085828f878b81
918c08838889000607088a8f8f0b8a02938d078f89849687
8484949610090e0581848b82810c030a05048d958b8a9189
0000000000000000a2a4099d0411030a03a908030c9203b5
000000000000000006a7a0ab9a9d03b7960c950a9688160e
0000000000000000070d01939698be0aa1060b0392018e06
000000000000000084b60e929e8bad0a0a0c989e999995ad
00000000000000008b13b18a061000a9a60a09099d0705a0
000000000000000009a60e939a990002099daca39d840008
00000000000000000a0d0b8e028404b308aea0ab04900db5
0000000000000000959eb5159d9eb5079e0c09089903820d
0000000000000000050b08120388920303a108ae0d068a09
0000000000000000ac10aa18a3178103a09f8aa60a01160e
